<pad>	0
<s>	0
</s>	0
<unk>	0
▁.	-0
▁l	-1
is	-2
es	-3
▁a	-4
re	-5
nt	-6
ou	-7
he	-8
▁I	-9
▁t	-10
est	-11
nd	-12
▁is	-13
▁T	-14
▁f	-15
▁li	-16
er	-17
oo	-18
ea	-19
in	-20
▁b	-21
▁?	-22
▁C	-23
his	-24
▁m	-25
▁J	-26
▁est	-27
▁v	-28
▁to	-29
on	-30
▁s	-31
ll	-32
▁p	-33
pp	-34
et	-35
▁liv	-36
▁mu	-37
▁les	-38
▁c	-39
ai	-40
at	-41
▁This	-42
▁y	-43
ant	-44
▁you	-45
tu	-46
ay	-47
all	-48
jou	-49
▁Il	-50
▁au	-51
ing	-52
de	-53
▁i	-54
▁int	-55
ook	-56
res	-57
▁book	-58
si	-59
▁musi	-60
ke	-61
me	-62
▁u	-63
aime	-64
▁like	-65
om	-66
▁la	-67
▁le	-68
rend	-69
it	-70
▁g	-71
▁w	-72
eau	-73
▁app	-74
▁beau	-75
Pa	-76
an	-77
ch	-78
Par	-79
▁Ce	-80
▁Par	-81
▁Paris	-82
▁S	-83
hu	-84
rd	-85
day	-86
hui	-87
jourd	-88
▁today	-89
▁aujourd	-90
ux	-91
▁Je	-92
▁The	-93
ery	-94
▁very	-95
tb	-96
ootb	-97
▁footb	-98
▁football	-99
rn	-100
▁W	-101
earn	-102
▁learn	-103
ro	-104
▁de	-105
app	-106
ov	-107
ress	-108
erest	-109
éress	-110
▁livre	-111
eresting	-112
éressant	-113
▁interesting	-114
▁intéressant	-115
qu	-116
que	-117
▁et	-118
▁and	-119
▁books	-120
▁music	-121
▁livres	-122
▁musique	-123
Do	-124
st	-125
te	-126
and	-127
omp	-128
son	-129
çon	-130
▁Do	-131
erst	-132
ette	-133
▁und	-134
rends	-135
▁Comp	-136
▁this	-137
▁cette	-138
▁leçon	-139
erstand	-140
▁lesson	-141
▁Comprends	-142
▁understand	-143
hat	-144
▁sm	-145
▁un	-146
etit	-147
▁cat	-148
▁chat	-149
▁petit	-150
▁small	-151
ait	-152
eat	-153
her	-154
les	-155
mes	-156
ood	-157
▁pom	-158
▁fait	-159
▁good	-160
▁weat	-161
▁apples	-162
▁pommes	-163
▁weather	-164
Où	-165
ci	-166
ça	-167
▁E	-168
▁F	-169
▁M	-170
▁à	-171
ank	-172
are	-173
ati	-174
cou	-175
eux	-176
lle	-177
nch	-178
ran	-179
▁Où	-180
▁Th	-181
▁in	-182
▁st	-183
coup	-184
erci	-185
here	-186
çais	-187
▁Fre	-188
▁She	-189
▁the	-190
▁vit	-191
ation	-192
▁Elle	-193
▁fran	-194
▁gare	-195
▁much	-196
▁veux	-197
▁want	-198
rendre	-199
▁Merci	-200
▁Thank	-201
▁Where	-202
▁lives	-203
▁French	-204
▁station	-205
▁beaucoup	-206
▁français	-207
▁apprendre	-208
ee	-209
ma	-210
mo	-211
▁À	-212
mor	-213
row	-214
main	-215
▁See	-216
morrow	-217
▁demain	-218
▁tomorrow	-219
He	-220
di	-221
▁h	-222
▁é	-223
heu	-224
uis	-225
▁He	-226
▁am	-227
appy	-228
dent	-229
reux	-230
tudi	-231
▁heu	-232
▁stu	-233
▁suis	-234
▁happy	-235
▁étudi	-236
▁heureux	-237
▁student	-238
▁étudiant	-239
dr	-240
ie	-241
il	-242
le	-243
nn	-244
rè	-245
drô	-246
ent	-247
ilm	-248
lay	-249
nny	-250
rès	-251
▁fu	-252
ovie	-253
▁Ils	-254
▁are	-255
▁drô	-256
▁jou	-257
▁They	-258
▁film	-259
▁play	-260
▁très	-261
▁drôle	-262
▁funny	-263
▁movie	-264
▁jouent	-265
▁playing	-266
ag	-267
ep	-268
fo	-269
im	-270
▁N	-271
age	-272
iss	-273
ons	-274
ous	-275
ove	-276
▁We	-277
fond	-278
rent	-279
▁aim	-280
▁pro	-281
▁Nous	-282
▁deep	-283
▁love	-284
issage	-285
apprent	-286
▁aimons	-287
▁profond	-288
▁learning	-289
apprentissage	-290
Ce	-291
Co	-292
El	-293
Fr	-294
Il	-295
Je	-296
Me	-297
No	-298
Se	-299
Sh	-300
Th	-301
We	-302
Wh	-303
al	-304
am	-305
ap	-306
ar	-307
au	-308
ba	-309
be	-310
bo	-311
ca	-312
ce	-313
co	-314
da	-315
ds	-316
em	-317
en	-318
eu	-319
ey	-320
eç	-321
fa	-322
fi	-323
fr	-324
fu	-325
ga	-326
ge	-327
go	-328
ha	-329
hi	-330
ia	-331
ic	-332
ik	-333
io	-334
iq	-335
iv	-336
jo	-337
ks	-338
la	-339
li	-340
lm	-341
lo	-342
ls	-343
mm	-344
mp	-345
mu	-346
nc	-347
ng	-348
ni	-349
nk	-350
ns	-351
ny	-352
nç	-353
od	-354
of	-355
ok	-356
or	-357
ot	-358
ow	-359
pe	-360
pl	-361
po	-362
pr	-363
py	-364
ra	-365
rc	-366
ri	-367
rr	-368
rs	-369
ry	-370
rô	-371
sa	-372
sm	-373
so	-374
ss	-375
su	-376
ta	-377
th	-378
ti	-379
to	-380
tr	-381
tt	-382
té	-383
uc	-384
ud	-385
ue	-386
ui	-387
uj	-388
un	-389
up	-390
ur	-391
us	-392
ve	-393
vi	-394
vr	-395
wa	-396
we	-397
yi	-398
yo	-399
ço	-400
ès	-401
ér	-402
ét	-403
ôl	-404
▁D	-405
▁H	-406
▁O	-407
▁P	-408
▁d	-409
▁e	-410
▁j	-411
Ell	-412
Fre	-413
Mer	-414
Nou	-415
She	-416
The	-417
Whe	-418
aim	-419
ain	-420
ais	-421
anç	-422
bea	-423
boo	-424
cet	-425
dee	-426
dem	-427
dre	-428
ear	-429
erc	-430
ere	-431
ers	-432
ess	-433
eti	-434
ett	-435
goo	-436
han	-437
hey	-438
int	-439
ion	-440
mon	-441
nde	-442
nds	-443
nin	-444
▁	-445
e	-446
s	-447
a	-448
i	-449
t	-450
o	-451
l	-452
n	-453
r	-454
u	-455
.	-456
h	-457
d	-458
m	-459
p	-460
y	-461
v	-462
c	-463
I	-464
f	-465
b	-466
T	-467
'	-468
g	-469
k	-470
?	-471
C	-472
J	-473
w	-474
j	-475
ç	-476
é	-477
P	-478
S	-479
x	-480
W	-481
q	-482
-	-483
D	-484
E	-485
F	-486
M	-487
O	-488
à	-489
ù	-490
À	-491
H	-492
è	-493
ô	-494
N	-495
